unsigned char stress_model_tflite[] = {
  0x1c, 0x00, 0x00, 0x00, 0x54, 0x46, 0x4c, 0x33, 0x14, 0x00, 0x20, 0x00,
  0x1c, 0x00, 0x18, 0x00, 0x14, 0x00, 0x10, 0x00, 0x0c, 0x00, 0x00, 0x00,
  0x08, 0x00, 0x04, 0x00, 0x14, 0x00, 0x00, 0x00, 0x1c, 0x00, 0x00, 0x00,
  0x98, 0x00, 0x00, 0x00, 0xf0, 0x00, 0x00, 0x00, 0x24, 0x0e, 0x00, 0x00,
  0x34, 0x0e, 0x00, 0x00, 0xe8, 0x13, 0x00, 0x00, 0x03, 0x00, 0x00, 0x00,
  0x01, 0x00, 0x00, 0x00, 0x10, 0x00, 0x00, 0x00, 0x00, 0x00, 0x0a, 0x00,
  0x10, 0x00, 0x0c, 0x00, 0x08, 0x00, 0x04, 0x00, 0x0a, 0x00, 0x00, 0x00,
  0x0c, 0x00, 0x00, 0x00, 0x1c, 0x00, 0x00, 0x00, 0x3c, 0x00, 0x00, 0x00,
  0x0f, 0x00, 0x00, 0x00, 0x73, 0x65, 0x72, 0x76, 0x69, 0x6e, 0x67, 0x5f,
  0x64, 0x65, 0x66, 0x61, 0x75, 0x6c, 0x74, 0x00, 0x01, 0x00, 0x00, 0x00,
  0x04, 0x00, 0x00, 0x00, 0x90, 0xff, 0xff, 0xff, 0x0a, 0x00, 0x00, 0x00,
  0x04, 0x00, 0x00, 0x00, 0x08, 0x00, 0x00, 0x00, 0x6f, 0x75, 0x74, 0x70,
  0x75, 0x74, 0x5f, 0x30, 0x00, 0x00, 0x00, 0x00, 0x01, 0x00, 0x00, 0x00,
  0x04, 0x00, 0x00, 0x00, 0xc2, 0xf1, 0xff, 0xff, 0x04, 0x00, 0x00, 0x00,
  0x0f, 0x00, 0x00, 0x00, 0x6b, 0x65, 0x72, 0x61, 0x73, 0x5f, 0x74, 0x65,
  0x6e, 0x73, 0x6f, 0x72, 0x5f, 0x31, 0x36, 0x00, 0x02, 0x00, 0x00, 0x00,
  0x34, 0x00, 0x00, 0x00, 0x04, 0x00, 0x00, 0x00, 0xdc, 0xff, 0xff, 0xff,
  0x0d, 0x00, 0x00, 0x00, 0x04, 0x00, 0x00, 0x00, 0x13, 0x00, 0x00, 0x00,
  0x43, 0x4f, 0x4e, 0x56, 0x45, 0x52, 0x53, 0x49, 0x4f, 0x4e, 0x5f, 0x4d,
  0x45, 0x54, 0x41, 0x44, 0x41, 0x54, 0x41, 0x00, 0x08, 0x00, 0x0c, 0x00,
  0x08, 0x00, 0x04, 0x00, 0x08, 0x00, 0x00, 0x00, 0x0c, 0x00, 0x00, 0x00,
  0x04, 0x00, 0x00, 0x00, 0x13, 0x00, 0x00, 0x00, 0x6d, 0x69, 0x6e, 0x5f,
  0x72, 0x75, 0x6e, 0x74, 0x69, 0x6d, 0x65, 0x5f, 0x76, 0x65, 0x72, 0x73,
  0x69, 0x6f, 0x6e, 0x00, 0x0e, 0x00, 0x00, 0x00, 0x30, 0x0d, 0x00, 0x00,
  0x28, 0x0d, 0x00, 0x00, 0xd8, 0x0b, 0x00, 0x00, 0xc8, 0x03, 0x00, 0x00,
  0xa4, 0x03, 0x00, 0x00, 0x54, 0x03, 0x00, 0x00, 0xc4, 0x02, 0x00, 0x00,
  0xb4, 0x00, 0x00, 0x00, 0xac, 0x00, 0x00, 0x00, 0xa4, 0x00, 0x00, 0x00,
  0x9c, 0x00, 0x00, 0x00, 0x94, 0x00, 0x00, 0x00, 0x74, 0x00, 0x00, 0x00,
  0x04, 0x00, 0x00, 0x00, 0x76, 0xf2, 0xff, 0xff, 0x04, 0x00, 0x00, 0x00,
  0x60, 0x00, 0x00, 0x00, 0x10, 0x00, 0x00, 0x00, 0x00, 0x00, 0x00, 0x00,
  0x08, 0x00, 0x0e, 0x00, 0x08, 0x00, 0x04, 0x00, 0x08, 0x00, 0x00, 0x00,
  0x10, 0x00, 0x00, 0x00, 0x24, 0x00, 0x00, 0x00, 0x00, 0x00, 0x06, 0x00,
  0x08, 0x00, 0x04, 0x00, 0x06, 0x00, 0x00, 0x00, 0x04, 0x00, 0x00, 0x00,
  0x00, 0x00, 0x00, 0x00, 0x0c, 0x00, 0x18, 0x00, 0x14, 0x00, 0x10, 0x00,
  0x0c, 0x00, 0x04, 0x00, 0x0c, 0x00, 0x00, 0x00, 0x81, 0x03, 0x13, 0xfd,
  0x71, 0xf3, 0x2e, 0x17, 0x02, 0x00, 0x00, 0x00, 0x02, 0x00, 0x00, 0x00,
  0x04, 0x00, 0x00, 0x00, 0x06, 0x00, 0x00, 0x00, 0x32, 0x2e, 0x31, 0x37,
  0x2e, 0x30, 0x00, 0x00, 0xe2, 0xf2, 0xff, 0xff, 0x04, 0x00, 0x00, 0x00,
  0x10, 0x00, 0x00, 0x00, 0x31, 0x2e, 0x35, 0x2e, 0x30, 0x00, 0x00, 0x00,
  0x00, 0x00, 0x00, 0x00, 0x00, 0x00, 0x00, 0x00, 0xfc, 0xed, 0xff, 0xff,
  0x00, 0xee, 0xff, 0xff, 0x04, 0xee, 0xff, 0xff, 0x08, 0xee, 0xff, 0xff,
  0x0e, 0xf3, 0xff, 0xff, 0x04, 0x00, 0x00, 0x00, 0x00, 0x02, 0x00, 0x00,
  0xdc, 0x3f, 0xe4, 0x3d, 0x24, 0xad, 0x7f, 0x3e, 0xcc, 0x02, 0xaa, 0x3e,
  0xed, 0xbf, 0x0c, 0x3e, 0xbd, 0x33, 0x24, 0xbe, 0x61, 0xc6, 0x8f, 0xbd,
  0x6b, 0x09, 0x31, 0x3e, 0xa9, 0xf1, 0x82, 0xbe, 0x81, 0xe0, 0xd8, 0xbe,
  0x44, 0x7b, 0xe7, 0xbd, 0x66, 0x81, 0x0d, 0xbf, 0xd4, 0xd4, 0x04, 0x3f,
  0xae, 0x5c, 0x1c, 0x3e, 0x04, 0xd2, 0x8e, 0xbe, 0x0f, 0xc2, 0xb7, 0x3e,
  0x9e, 0xed, 0x3e, 0x3e, 0x63, 0xe6, 0x41, 0xbe, 0xc7, 0x18, 0xfc, 0xbe,
  0xcc, 0x4d, 0x7d, 0xbd, 0x6a, 0x9a, 0xd3, 0xbe, 0x2c, 0xcd, 0xea, 0x3e,
  0x65, 0xb9, 0x83, 0xbe, 0xee, 0xf9, 0xa4, 0x3e, 0x7b, 0x00, 0xe2, 0xbe,
  0xaa, 0xbf, 0x44, 0xbe, 0x49, 0x7d, 0xa6, 0x3e, 0x47, 0x5c, 0xf7, 0xbe,
  0xda, 0x4c, 0x08, 0x3d, 0x53, 0x81, 0xe4, 0x3e, 0x6b, 0x9f, 0xfd, 0xbe,
  0x81, 0xc0, 0x84, 0x3e, 0x6d, 0x9d, 0x03, 0xbf, 0x96, 0xff, 0x00, 0x3e,
  0x2c, 0x08, 0xd7, 0xbe, 0x6a, 0x09, 0x74, 0x3d, 0x63, 0x6d, 0xfa, 0xbb,
  0xe7, 0x5d, 0xbe, 0xbe, 0x9f, 0x84, 0x51, 0xbe, 0xfb, 0xee, 0x2e, 0x3d,
  0x78, 0x98, 0x42, 0x3e, 0x67, 0xce, 0xe8, 0x3e, 0x90, 0x05, 0x06, 0xbe,
  0x92, 0xfc, 0x99, 0x3e, 0x5b, 0x02, 0x29, 0xbe, 0x74, 0x02, 0x53, 0x3e,
  0xa7, 0xd8, 0x75, 0xbe, 0x00, 0xb2, 0x2d, 0x3e, 0x3a, 0x4f, 0x5b, 0xbe,
  0x3e, 0xdf, 0x4d, 0x3e, 0xb9, 0x67, 0xcf, 0x3b, 0xd7, 0x6a, 0xea, 0xbe,
  0x20, 0xa3, 0x0d, 0x3e, 0x1f, 0xd9, 0x36, 0xbe, 0x04, 0xd2, 0xa4, 0x3c,
  0xc5, 0x6d, 0x43, 0xbd, 0xe7, 0xbd, 0xe2, 0xbd, 0xb9, 0xe0, 0x63, 0xbb,
  0x8c, 0xaf, 0xca, 0x3e, 0x83, 0x74, 0x80, 0xbe, 0x7d, 0x52, 0xae, 0x3c,
  0xf0, 0x5f, 0xb7, 0x3d, 0x82, 0x06, 0xc4, 0x3d, 0x93, 0xe6, 0x14, 0x3e,
  0xb6, 0x93, 0x1d, 0xbe, 0x0a, 0x90, 0xed, 0x3c, 0x3e, 0x35, 0x31, 0x3d,
  0x80, 0x9c, 0x08, 0xbf, 0xe5, 0xb0, 0x87, 0x3d, 0x13, 0x4b, 0x4f, 0xbe,
  0x73, 0xf9, 0x4b, 0xbe, 0x4e, 0x4c, 0x08, 0xbf, 0xf3, 0xf9, 0xea, 0x3e,
  0x0c, 0x2a, 0x76, 0xbe, 0xd6, 0x78, 0x27, 0x3e, 0x84, 0x3b, 0xcd, 0x3e,
  0xc9, 0x5b, 0xdd, 0xbe, 0x2f, 0xdd, 0xe2, 0xbe, 0x95, 0x48, 0x07, 0xbe,
  0xf9, 0xff, 0x02, 0xbf, 0xae, 0x6e, 0x2c, 0x3e, 0x5a, 0xca, 0x6c, 0xbe,
  0x7c, 0xbb, 0xe4, 0xbe, 0x31, 0x5a, 0x9d, 0x3e, 0xfb, 0x8e, 0xe3, 0xbe,
  0x0e, 0xe9, 0x03, 0xbf, 0x66, 0xee, 0xf3, 0x3d, 0xbf, 0x70, 0x7e, 0x3e,
  0x0b, 0xa4, 0x03, 0x3f, 0x8c, 0x6e, 0xc0, 0xbe, 0x3e, 0xe3, 0xe0, 0xbb,
  0xee, 0x2a, 0x6e, 0xbe, 0x27, 0xfe, 0xb3, 0x3e, 0x08, 0x78, 0x7b, 0x3e,
  0x80, 0xff, 0xa7, 0xbe, 0x40, 0x63, 0xde, 0x3e, 0x31, 0xa1, 0xbe, 0xbe,
  0x76, 0xbb, 0x01, 0xbf, 0xbd, 0xdf, 0xd0, 0x3e, 0x98, 0x9c, 0x62, 0x3e,
  0xae, 0xc6, 0x8f, 0x3e, 0x23, 0x4a, 0x86, 0xbe, 0x2f, 0xf4, 0xb4, 0xbe,
  0x7b, 0x39, 0xf5, 0xbc, 0xe7, 0x25, 0xb1, 0xbe, 0x9c, 0x11, 0x8b, 0xbe,
  0x26, 0xe4, 0xa3, 0xbe, 0x2f, 0xed, 0xba, 0x3e, 0x94, 0x60, 0x92, 0x3d,
  0x22, 0x45, 0xd1, 0x3e, 0x68, 0xf3, 0x4d, 0x3c, 0x2e, 0x53, 0xb1, 0xbe,
  0x63, 0x94, 0x8f, 0xbe, 0x2d, 0xe6, 0x02, 0xbe, 0x8d, 0xc1, 0xac, 0x3e,
  0xea, 0xca, 0x48, 0xbe, 0xb3, 0xac, 0x3b, 0xbe, 0xcf, 0x26, 0x9a, 0xbe,
  0xf9, 0xb3, 0x31, 0xbe, 0x40, 0xa5, 0x20, 0x3e, 0x43, 0xb7, 0x20, 0x3d,
  0xb4, 0x12, 0xc1, 0xbe, 0x0a, 0xac, 0x27, 0x3d, 0xd7, 0x08, 0x9e, 0x3d,
  0xa5, 0x29, 0x80, 0xbe, 0x7a, 0x00, 0xcf, 0xbe, 0x1c, 0x26, 0x9c, 0x3e,
  0x8d, 0x49, 0x87, 0xbe, 0x5a, 0x42, 0x83, 0x3e, 0x1a, 0xf5, 0xff, 0xff,
  0x04, 0x00, 0x00, 0x00, 0x80, 0x00, 0x00, 0x00, 0x3e, 0x8e, 0xca, 0x3d,
  0x32, 0xc6, 0x23, 0xbe, 0x77, 0x98, 0x4d, 0xbc, 0x9b, 0x76, 0xa0, 0x3c,
  0xca, 0x3f, 0x2f, 0x3d, 0x58, 0x04, 0xca, 0x3d, 0x9c, 0x59, 0x56, 0x3e,
  0x9a, 0x7c, 0x73, 0x3e, 0xa7, 0x78, 0x1c, 0x3e, 0xdb, 0x50, 0x2e, 0x3e,
  0x84, 0xfa, 0xfb, 0xbd, 0xdb, 0xc0, 0xfc, 0xbd, 0x0d, 0xac, 0x81, 0x3e,
  0x5d, 0xf1, 0x22, 0xbd, 0xc3, 0x78, 0x63, 0x3e, 0x56, 0x12, 0x08, 0xbe,
  0x43, 0x1d, 0x63, 0x3e, 0xdc, 0x4f, 0xde, 0x3d, 0x0d, 0xcb, 0x74, 0x3e,
  0xbc, 0xca, 0xd1, 0x3d, 0x35, 0x07, 0x0c, 0xbe, 0x73, 0xca, 0x6d, 0x3e,
  0x13, 0xce, 0xbc, 0xbc, 0x2d, 0x50, 0x80, 0xbd, 0xb8, 0x9e, 0x81, 0x3e,
  0x5b, 0x96, 0x32, 0x3e, 0xfa, 0xbc, 0x1e, 0xbe, 0x0c, 0x78, 0x7b, 0x3e,
  0x5b, 0x60, 0x0c, 0xbc, 0xf5, 0x70, 0x5a, 0x3e, 0x23, 0x7f, 0x90, 0x3e,
  0x82, 0x55, 0x87, 0x3d, 0xa6, 0xf5, 0xff, 0xff, 0x04, 0x00, 0x00, 0x00,
  0x40, 0x00, 0x00, 0x00, 0x1d, 0x59, 0x03, 0x3e, 0x90, 0x96, 0xd8, 0x3d,
  0x9d, 0x8f, 0x4e, 0x3e, 0xeb, 0x49, 0x1c, 0x3d, 0x79, 0x9c, 0x35, 0xbe,
  0x00, 0x00, 0x00, 0x00, 0x5b, 0x3d, 0xdf, 0xbd, 0xaf, 0x3c, 0x68, 0x3e,
  0x44, 0x12, 0x2e, 0xbd, 0x37, 0x81, 0x0c, 0x3e, 0x00, 0x00, 0x00, 0x00,
  0xdf, 0xe9, 0xe4, 0xbd, 0x98, 0x02, 0xb9, 0x3d, 0xc8, 0x83, 0x2d, 0xbe,
  0xbb, 0x27, 0x3a, 0x3e, 0x7c, 0x7f, 0xa4, 0xbc, 0xf2, 0xf5, 0xff, 0xff,
  0x04, 0x00, 0x00, 0x00, 0x14, 0x00, 0x00, 0x00, 0xed, 0x2d, 0x38, 0xbe,
  0x82, 0xd7, 0x6d, 0x3d, 0x9d, 0x82, 0xf6, 0x3d, 0x69, 0xbc, 0x19, 0x3e,
  0xc3, 0xff, 0x35, 0xbe, 0x12, 0xf6, 0xff, 0xff, 0x04, 0x00, 0x00, 0x00,
  0x00, 0x08, 0x00, 0x00, 0xe8, 0x8b, 0xc6, 0xbc, 0x75, 0x48, 0x3f, 0x3e,
  0x2f, 0x4b, 0xa5, 0x3e, 0x4c, 0x51, 0xe8, 0x3d, 0x43, 0x54, 0xc8, 0x3e,
  0x35, 0x9f, 0x0c, 0xbe, 0x23, 0x40, 0xcf, 0xbb, 0xf6, 0xab, 0x6a, 0xbe,
  0x63, 0x00, 0x10, 0x3e, 0xd0, 0xd0, 0xcf, 0x3e, 0x97, 0xd2, 0x29, 0x3e,
  0xd4, 0xc1, 0x67, 0xbd, 0x82, 0x4e, 0x02, 0x3f, 0xf6, 0xa2, 0x48, 0x3e,
  0x9b, 0x33, 0xbb, 0x3e, 0xfd, 0x32, 0x9a, 0xbe, 0x67, 0x57, 0xe0, 0x3e,
  0x56, 0xc4, 0xb0, 0x3d, 0x3f, 0x9b, 0xca, 0x3e, 0x9a, 0x92, 0x7f, 0x3e,
  0xb1, 0x89, 0xb6, 0xbe, 0x5f, 0x85, 0xad, 0x3e, 0xe7, 0x03, 0xa1, 0xbd,
  0x11, 0xb6, 0xa2, 0xbd, 0x4b, 0xbf, 0x4c, 0x3e, 0x00, 0x9c, 0x34, 0xbe,
  0x09, 0x42, 0xa0, 0x3e, 0x1b, 0xd0, 0x7d, 0xbe, 0xb4, 0xd2, 0x93, 0xbd,
  0xfe, 0xdc, 0xa8, 0xbc, 0xaf, 0xfe, 0xd6, 0x3e, 0x07, 0xd0, 0x90, 0x3e,
  0xe0, 0xb1, 0x2f, 0x3e, 0x29, 0xaa, 0x95, 0xbe, 0xf8, 0x77, 0xba, 0xbd,
  0xed, 0x7b, 0x42, 0x3e, 0x8f, 0xf6, 0xb4, 0x3e, 0xdf, 0x9b, 0x68, 0xbe,
  0xf6, 0x66, 0xce, 0xbd, 0x79, 0xd2, 0xc2, 0x3e, 0xe9, 0xf8, 0x20, 0x3e,
  0x9c, 0xf2, 0x00, 0x3e, 0x41, 0x1e, 0xf5, 0xbd, 0x28, 0x51, 0x85, 0xba,
  0x25, 0x75, 0x6e, 0xbe, 0x7b, 0x5f, 0x03, 0x3e, 0x97, 0x9f, 0x9f, 0xbe,
  0xe4, 0xc9, 0x0b, 0xbe, 0xcb, 0x25, 0x98, 0x3e, 0x31, 0x7c, 0x93, 0xbb,
  0xf2, 0xad, 0xd8, 0x3e, 0x67, 0x2f, 0xa0, 0x3e, 0x66, 0xd2, 0x58, 0xbe,
  0x69, 0x8d, 0x24, 0x3d, 0xbb, 0x69, 0xe2, 0x3d, 0x42, 0xdd, 0xac, 0xbe,
  0xf0, 0xbc, 0x0e, 0xbd, 0x4b, 0x0f, 0x03, 0xbe, 0x2c, 0x5c, 0xf5, 0xbe,
  0x34, 0xd1, 0xb7, 0x3e, 0xb3, 0x85, 0xf1, 0x3c, 0x33, 0x75, 0x9b, 0x3e,
  0xf1, 0x0e, 0xca, 0x3e, 0x89, 0x25, 0x70, 0xbe, 0xd0, 0x03, 0x31, 0x3e,
  0x26, 0xde, 0x5e, 0xbe, 0xa6, 0x49, 0x5a, 0xbe, 0x2a, 0x61, 0x89, 0xbe,
  0xfa, 0xcb, 0xfb, 0x3d, 0xf4, 0x4f, 0xd2, 0x3e, 0x54, 0x5a, 0x84, 0x3d,
  0xf2, 0x9d, 0x52, 0x3d, 0x90, 0x68, 0x14, 0x3f, 0xb8, 0x29, 0x48, 0x3e,
  0x94, 0x54, 0x51, 0xbe, 0xa1, 0x6f, 0x92, 0xbe, 0x8e, 0x5e, 0x89, 0x3e,
  0x5c, 0xf0, 0x9e, 0xbd, 0x72, 0xa6, 0x7b, 0x3d, 0x84, 0x38, 0x60, 0x3e,
  0xb5, 0x69, 0x18, 0xbe, 0x01, 0xaf, 0x67, 0xbe, 0x33, 0xbe, 0x97, 0x3e,
  0xf0, 0x9d, 0x1b, 0xbe, 0x89, 0x41, 0x65, 0xbe, 0x6d, 0x3c, 0x12, 0x3e,
  0x89, 0xb0, 0xaa, 0xbe, 0xc9, 0x64, 0x94, 0x3e, 0xbb, 0x46, 0x19, 0xbe,
  0xf3, 0x20, 0xf0, 0x3e, 0x9c, 0xb3, 0x2c, 0x3d, 0x5f, 0xee, 0x14, 0x3f,
  0x17, 0xd7, 0xff, 0xbe, 0xf2, 0xe8, 0xef, 0x3e, 0xa7, 0x88, 0x12, 0x3f,
  0x17, 0x01, 0x8e, 0xbe, 0x1f, 0x39, 0x84, 0xbe, 0x69, 0xc9, 0x8b, 0x3e,
  0xea, 0x9d, 0x4b, 0xbe, 0x4f, 0x72, 0xd0, 0x3e, 0xe8, 0x88, 0xc0, 0x3e,
  0x05, 0xfb, 0x5d, 0x3e, 0xe6, 0x2f, 0x96, 0x3d, 0xa2, 0x8b, 0xde, 0x3e,
  0x1f, 0x92, 0xd6, 0x3e, 0x93, 0x02, 0x8c, 0x3e, 0xe8, 0xfd, 0xba, 0x3e,
  0xfd, 0x54, 0x44, 0x3e, 0x67, 0x4e, 0x83, 0x3e, 0x64, 0x2c, 0x0e, 0x3e,
  0xac, 0x41, 0x8f, 0x3e, 0x58, 0x44, 0xb8, 0x3e, 0x53, 0x92, 0x94, 0x3e,
  0xf0, 0x0b, 0x99, 0xbe, 0xdf, 0x9b, 0x13, 0xbe, 0x5c, 0x09, 0x21, 0xbe,
  0x7c, 0xb6, 0xa6, 0x3e, 0x26, 0x90, 0x6c, 0xbe, 0x54, 0xa9, 0x6d, 0xbe,
  0x78, 0x31, 0xb3, 0x3e, 0xf7, 0xb9, 0x72, 0xbd, 0xfb, 0xea, 0x36, 0xbe,
  0x7d, 0x8c, 0x9e, 0x3e, 0x15, 0xc3, 0x32, 0xbe, 0x0a, 0x4d, 0x98, 0x3b,
  0x35, 0x71, 0x63, 0x3d, 0xa7, 0x98, 0xbb, 0xbc, 0x01, 0x90, 0x29, 0x3e,
  0x35, 0xab, 0x9e, 0xbe, 0x5a, 0x0c, 0x17, 0x3e, 0x38, 0x1d, 0xce, 0x3e,
  0x93, 0xd3, 0x19, 0xbe, 0x7f, 0x1f, 0x99, 0xbe, 0x10, 0xb7, 0xb3, 0x3d,
  0x65, 0x30, 0x40, 0x3d, 0xf0, 0x1f, 0xea, 0x3c, 0xe8, 0xd3, 0x14, 0x3e,
  0x94, 0x66, 0xc7, 0x3e, 0x86, 0x69, 0x98, 0xbe, 0x84, 0xea, 0x9e, 0xbe,
  0x68, 0xe4, 0x1c, 0x3e, 0xfc, 0xad, 0x15, 0x3e, 0xcd, 0x84, 0xa7, 0xbe,
  0xdf, 0x97, 0x51, 0x3e, 0x28, 0xf2, 0xc3, 0x3c, 0xca, 0x90, 0x2b, 0xbe,
  0x21, 0x98, 0x97, 0xbe, 0x72, 0x0a, 0x87, 0x3d, 0xc1, 0x02, 0xaa, 0xbe,
  0x9a, 0xac, 0x85, 0x3e, 0x01, 0x73, 0x8c, 0xbd, 0x94, 0x90, 0x57, 0xbe,
  0x95, 0xdb, 0x28, 0xbe, 0x52, 0x28, 0x9a, 0xbe, 0xa9, 0xe9, 0xad, 0x3e,
  0xda, 0xdd, 0xe6, 0xbe, 0x96, 0xfd, 0xa5, 0xbd, 0xeb, 0xb5, 0xaf, 0xbe,
  0xe5, 0xfc, 0x35, 0xbe, 0xa1, 0x11, 0x8a, 0x3e, 0x04, 0x95, 0x04, 0xbe,
  0xf6, 0x69, 0x37, 0x3e, 0xb6, 0x10, 0x0a, 0xbe, 0x26, 0x0c, 0x0c, 0xbe,
  0xbf, 0xe3, 0x69, 0xbe, 0xe8, 0x00, 0x44, 0xbd, 0xb0, 0x67, 0xac, 0x3c,
  0x84, 0x3a, 0xcf, 0xbd, 0x37, 0xc2, 0x8f, 0x3e, 0xb2, 0xf8, 0xfa, 0xbd,
  0xa2, 0xca, 0x93, 0xbe, 0xb4, 0x95, 0x83, 0xbe, 0xe9, 0xf7, 0x80, 0xbe,
  0xe8, 0x5e, 0x0f, 0xbe, 0x98, 0x30, 0x39, 0xbd, 0xcb, 0x0f, 0xae, 0xbe,
  0xc0, 0x23, 0xc0, 0xbc, 0xd0, 0xa9, 0x17, 0xbd, 0x6a, 0x26, 0x0d, 0xbe,
  0x5d, 0xa9, 0x8d, 0x3e, 0x80, 0x89, 0xc4, 0xbc, 0x88, 0xfc, 0x75, 0xbd,
  0xce, 0x4b, 0x8f, 0xbe, 0x60, 0x7d, 0x86, 0x3c, 0x1a, 0x0e, 0x40, 0x3e,
  0xd9, 0xae, 0xb0, 0xbe, 0xe4, 0xde, 0x99, 0xbd, 0xc0, 0xca, 0x9c, 0xbe,
  0xf4, 0x8e, 0xbf, 0x3d, 0xc4, 0xf3, 0x15, 0x3e, 0x40, 0xa3, 0x2d, 0xbe,
  0xe8, 0x6a, 0x82, 0xbe, 0x15, 0xa4, 0xd3, 0xbd, 0x8d, 0x23, 0x9f, 0x3e,
  0xdd, 0xde, 0x6d, 0x3e, 0x4b, 0x68, 0x71, 0xbd, 0xe6, 0x2f, 0x99, 0x3e,
  0x51, 0xb2, 0x91, 0xbe, 0x7a, 0x36, 0x03, 0x3e, 0x70, 0x44, 0x30, 0xbd,
  0x5b, 0x6d, 0xaa, 0x3e, 0x28, 0x5d, 0xce, 0x3d, 0x1e, 0x7e, 0xaf, 0x3e,
  0x0f, 0x36, 0x74, 0x3e, 0x28, 0x42, 0x89, 0xbb, 0xf2, 0x0b, 0x6c, 0x3e,
  0xa9, 0xd7, 0x66, 0x3e, 0x61, 0xb2, 0xa8, 0x3e, 0x86, 0xe1, 0xac, 0x3e,
  0xdc, 0x82, 0xc0, 0x3e, 0x0c, 0x03, 0x47, 0xbe, 0xfc, 0x7a, 0x85, 0x3e,
  0x7a, 0x66, 0xe6, 0x3d, 0x20, 0xd6, 0x03, 0x3e, 0x93, 0x28, 0xc3, 0x3b,
  0x0f, 0x8c, 0x54, 0x3e, 0xd6, 0x59, 0x63, 0xbe, 0x2d, 0x0b, 0x66, 0xbe,
  0x10, 0xeb, 0xfa, 0x3d, 0x11, 0x3b, 0x41, 0xbe, 0xbb, 0xd5, 0x9a, 0xbd,
  0x61, 0x4a, 0x34, 0xbe, 0x89, 0x04, 0x4f, 0xbe, 0x99, 0xf8, 0x12, 0x3e,
  0xf6, 0xe6, 0x84, 0x3e, 0x01, 0xa5, 0x84, 0xbe, 0x21, 0x87, 0x3b, 0x3e,
  0xa7, 0x93, 0x0b, 0xbe, 0x2a, 0xb3, 0x3b, 0xbe, 0x82, 0x0c, 0x87, 0xbd,
  0xf7, 0x9f, 0x92, 0x3e, 0xdc, 0xcf, 0x9e, 0x3e, 0x61, 0xb9, 0x94, 0xbd,
  0xbf, 0xcb, 0x15, 0x3d, 0xa5, 0x46, 0x94, 0x3e, 0x79, 0xc4, 0xa2, 0xbe,
  0x01, 0x1d, 0x81, 0x3e, 0xa0, 0xd3, 0x21, 0xbe, 0x66, 0xfc, 0xf1, 0x3e,
  0x7c, 0x74, 0xd9, 0xbe, 0x86, 0x8d, 0x5e, 0x3e, 0x0f, 0xb6, 0x15, 0x3b,
  0x13, 0x7b, 0x91, 0xbd, 0xea, 0xdd, 0xa4, 0x3e, 0x24, 0x61, 0x1a, 0xbd,
  0xaa, 0xa8, 0x47, 0xbd, 0x71, 0x65, 0x55, 0x3e, 0xa7, 0x54, 0x8e, 0xbe,
  0xf4, 0x69, 0xb3, 0x3e, 0x75, 0x18, 0x09, 0x3e, 0x9c, 0x0d, 0x6d, 0xbd,
  0x21, 0xe7, 0x95, 0xbd, 0x7b, 0xd7, 0x55, 0x3e, 0xf1, 0xfe, 0xb4, 0x3e,
  0x1c, 0x97, 0xe7, 0x3e, 0xb6, 0x74, 0xd8, 0x3e, 0x81, 0x0e, 0x32, 0x3e,
  0xe4, 0x14, 0x61, 0xbe, 0xea, 0x94, 0x06, 0x3d, 0xcc, 0xbe, 0xa7, 0x3e,
  0x1f, 0x68, 0x44, 0xbd, 0xcc, 0x39, 0xb7, 0x3d, 0xcf, 0x42, 0xba, 0x3d,
  0xcd, 0xfa, 0x3c, 0x3e, 0x9c, 0xb3, 0xe7, 0x3e, 0x6c, 0xb5, 0xcd, 0xbe,
  0x6e, 0x84, 0x07, 0x3e, 0xfa, 0x23, 0x9c, 0x3e, 0x7f, 0xc4, 0x0a, 0xbf,
  0x5e, 0x50, 0x94, 0xbd, 0xe3, 0x8c, 0x36, 0xbe, 0x06, 0xdc, 0x03, 0x3e,
  0x36, 0x13, 0x49, 0xbe, 0x20, 0xf7, 0xba, 0xbe, 0xef, 0x0f, 0xc5, 0x3e,
  0xf2, 0xda, 0x5a, 0xbe, 0xa2, 0x69, 0xae, 0x3e, 0x17, 0x3e, 0xe3, 0xbd,
  0x88, 0xd6, 0x1e, 0xbd, 0x5b, 0x3c, 0x7f, 0x3e, 0xfb, 0xf3, 0x12, 0xbf,
  0x49, 0x02, 0xea, 0x3e, 0x70, 0x13, 0xa5, 0x3c, 0x59, 0xed, 0x2f, 0xbd,
  0x44, 0x04, 0xab, 0xbe, 0xa8, 0xc1, 0xa5, 0xbe, 0xd0, 0x79, 0xb6, 0xbe,
  0xdb, 0xc1, 0x72, 0xbe, 0x3c, 0x13, 0x2c, 0xbd, 0x39, 0x63, 0x35, 0xbe,
  0xeb, 0x5b, 0x87, 0xbe, 0xb9, 0x05, 0xd7, 0x3e, 0xc9, 0x94, 0x3c, 0x3e,
  0xed, 0xbe, 0x17, 0xbe, 0x0d, 0x10, 0x46, 0x3d, 0x1b, 0xa5, 0xc5, 0x3e,
  0xd5, 0x60, 0x07, 0x3f, 0x60, 0xa4, 0x61, 0xbe, 0x14, 0xb3, 0xc0, 0x3d,
  0x49, 0x1a, 0x66, 0xbe, 0xb5, 0x96, 0x90, 0x3e, 0x90, 0x44, 0x70, 0xbe,
  0x71, 0xe0, 0xa6, 0xbd, 0xa0, 0x1d, 0x1d, 0x3e, 0x24, 0x14, 0xb5, 0x3e,
  0xb6, 0x2d, 0xaf, 0xbe, 0xae, 0xd3, 0x02, 0x3e, 0xd8, 0xe1, 0x57, 0xbd,
  0x71, 0x39, 0xba, 0x3e, 0xae, 0x8b, 0xb6, 0x3e, 0x13, 0x84, 0x1f, 0xbc,
  0x01, 0x1d, 0xf2, 0x3e, 0xd6, 0xe2, 0x5a, 0x3e, 0x23, 0x95, 0x06, 0x3f,
  0x7f, 0xe2, 0x84, 0xbe, 0x63, 0xe3, 0xf0, 0x3e, 0x74, 0x95, 0x9d, 0x3e,
  0x52, 0xae, 0x20, 0x3e, 0x91, 0x8d, 0x66, 0x3e, 0x0f, 0xc0, 0xaa, 0xbe,
  0xec, 0x20, 0x0f, 0x3e, 0x42, 0x74, 0x9f, 0xbe, 0x7b, 0x41, 0xa5, 0xbe,
  0x18, 0xf0, 0xee, 0xbd, 0x14, 0xea, 0xaf, 0xbd, 0x7f, 0x5c, 0x57, 0xbe,
  0xb2, 0xc1, 0x55, 0x3e, 0xdf, 0xef, 0x9d, 0x3e, 0xad, 0xaf, 0x84, 0xbe,
  0x01, 0x52, 0x3d, 0xbe, 0xd6, 0xb6, 0xd5, 0xbd, 0xac, 0x4f, 0xad, 0xbd,
  0xd0, 0x38, 0xb9, 0x3c, 0x10, 0x15, 0x31, 0x3d, 0x02, 0x1b, 0x2f, 0x3e,
  0x90, 0x6d, 0x0a, 0x3e, 0xf2, 0x65, 0x84, 0xbe, 0x7c, 0x66, 0x89, 0xbe,
  0x08, 0x59, 0x80, 0xbe, 0xaf, 0x3b, 0x9c, 0xbe, 0xa3, 0xc1, 0xb3, 0xbe,
  0xa6, 0xd1, 0x32, 0xbe, 0xe0, 0x0b, 0x52, 0xbc, 0xfb, 0x22, 0x02, 0xbe,
  0xa3, 0xef, 0x88, 0xbe, 0x28, 0x57, 0x93, 0x3d, 0x4f, 0x2d, 0xa2, 0xbe,
  0x11, 0x2d, 0x9c, 0x3e, 0x30, 0x11, 0x9d, 0x3d, 0xc8, 0x33, 0xf3, 0xbd,
  0x3a, 0xa8, 0x52, 0xbe, 0xee, 0xcb, 0x26, 0x3e, 0xb1, 0x2d, 0x7b, 0xbe,
  0xd0, 0x91, 0x86, 0xbe, 0x07, 0x98, 0x87, 0x3e, 0x01, 0xf8, 0x09, 0x3e,
  0x20, 0x12, 0x86, 0x3e, 0x0b, 0x7b, 0xd3, 0x3e, 0xab, 0x35, 0x34, 0xbe,
  0x97, 0x22, 0x01, 0x3e, 0x67, 0x05, 0xac, 0x3e, 0x96, 0x49, 0x9b, 0xbe,
  0x20, 0x9a, 0xf5, 0x3e, 0xe2, 0xda, 0x15, 0x3e, 0xc4, 0x00, 0xed, 0xbe,
  0xd9, 0x6a, 0x53, 0xbd, 0x2e, 0xdb, 0x6e, 0xbe, 0x68, 0xa1, 0xb4, 0x3e,
  0x66, 0xb4, 0x15, 0x3e, 0x49, 0xdd, 0x56, 0x3e, 0xbf, 0x00, 0x7b, 0x3e,
  0x78, 0xc6, 0xa4, 0xbe, 0xbb, 0xf2, 0x8c, 0xbd, 0x5f, 0x29, 0xb9, 0xbd,
  0x04, 0x42, 0x92, 0x3e, 0xda, 0x19, 0x78, 0xbd, 0x82, 0xcd, 0x01, 0xbe,
  0x98, 0x17, 0x6a, 0x3e, 0x72, 0x05, 0x11, 0x3e, 0xf2, 0x4e, 0x01, 0xbe,
  0xab, 0x9b, 0x94, 0x3e, 0x4b, 0x7f, 0x69, 0x3e, 0x12, 0x3f, 0xe9, 0xbe,
  0x13, 0x0d, 0x24, 0xbd, 0x41, 0x14, 0x81, 0x3e, 0x0b, 0x2a, 0x34, 0x3d,
  0x12, 0x63, 0x8d, 0x3e, 0x89, 0x86, 0x6e, 0x3c, 0x10, 0x77, 0xcb, 0x3d,
  0xdd, 0x96, 0xdf, 0x3d, 0x65, 0x5d, 0xe0, 0xbe, 0xd7, 0x0d, 0x84, 0x3e,
  0xd3, 0xd2, 0x79, 0x3b, 0x73, 0xa0, 0x1a, 0x3e, 0x47, 0x0e, 0x6e, 0xbe,
  0xcd, 0x2b, 0x6d, 0x3e, 0xd4, 0x89, 0xdb, 0xbe, 0x62, 0x6f, 0xd6, 0x3d,
  0x6e, 0xff, 0xae, 0xbe, 0x85, 0x55, 0xb8, 0xbd, 0xfd, 0x4c, 0x72, 0xbe,
  0x91, 0x3f, 0xd0, 0xbe, 0xdd, 0xe9, 0x14, 0xbe, 0xed, 0x8c, 0xb0, 0xbd,
  0x36, 0xfe, 0x52, 0x3e, 0x99, 0xcb, 0xcb, 0xbe, 0xb4, 0x28, 0x93, 0xbd,
  0x5f, 0x7b, 0x69, 0xbd, 0xd4, 0xbf, 0x01, 0xbf, 0x6c, 0x88, 0x32, 0xbe,
  0xf7, 0x4d, 0xbc, 0xbe, 0x4d, 0xaa, 0xdc, 0x3e, 0xdd, 0x45, 0x33, 0xbc,
  0x11, 0xc4, 0xa0, 0xbe, 0x3b, 0x1e, 0x4a, 0x3e, 0x11, 0x89, 0x69, 0xbd,
  0x68, 0x4f, 0xe6, 0xbd, 0xd8, 0x0e, 0x03, 0x3e, 0xf2, 0x79, 0x30, 0xbe,
  0x5d, 0x48, 0x59, 0xbe, 0x28, 0x66, 0x11, 0x3e, 0xd5, 0x12, 0x73, 0x3e,
  0xf6, 0xe4, 0x3f, 0x3e, 0xf1, 0xf1, 0x9a, 0xbd, 0x11, 0x52, 0xad, 0x3e,
  0xfb, 0x01, 0xe6, 0xbc, 0xed, 0x81, 0x3e, 0xbd, 0x4d, 0xfb, 0x95, 0x3e,
  0xaa, 0xaa, 0xb1, 0xbe, 0xc0, 0x97, 0x5c, 0xbe, 0xc1, 0xe9, 0x96, 0xbe,
  0x1c, 0x8d, 0x41, 0x3d, 0xc7, 0xe1, 0x96, 0xbe, 0xb0, 0x14, 0xb6, 0x3e,
  0x62, 0x5d, 0x5e, 0xbe, 0xfc, 0x24, 0xbc, 0x3e, 0x12, 0x1d, 0x83, 0x3d,
  0xb7, 0xde, 0xb0, 0xbd, 0x39, 0x73, 0xa1, 0x3e, 0x02, 0x0c, 0x3a, 0x3e,
  0xe8, 0xdc, 0x57, 0xbd, 0xd9, 0xc8, 0xbe, 0xbe, 0x77, 0x9d, 0xdc, 0x3e,
  0xcc, 0x68, 0x66, 0xbe, 0xc5, 0xf5, 0x99, 0x3e, 0x39, 0xd7, 0x59, 0x3e,
  0xff, 0x8a, 0xd6, 0xbe, 0xdc, 0xd7, 0xc5, 0x3e, 0xf7, 0xc5, 0xc8, 0xbd,
  0xbd, 0x7e, 0x08, 0x3e, 0xb2, 0x0c, 0x9f, 0xba, 0x71, 0x1c, 0x97, 0xbd,
  0x4a, 0xc9, 0x88, 0xbd, 0x40, 0xe1, 0x81, 0x3e, 0xc2, 0x56, 0xc8, 0x3e,
  0x0f, 0xc9, 0x39, 0xbe, 0x49, 0x01, 0x4c, 0xbe, 0x7f, 0x32, 0xe0, 0x3e,
  0xf6, 0x01, 0xbd, 0x3d, 0x12, 0x10, 0x97, 0xbe, 0x22, 0x64, 0x11, 0x3e,
  0x25, 0x5f, 0xcd, 0xbc, 0x04, 0xb2, 0xfb, 0x3e, 0x2e, 0xd4, 0xd5, 0x3d,
  0x37, 0x77, 0xaa, 0x3e, 0xa9, 0xeb, 0x07, 0x3f, 0x9d, 0x61, 0xb9, 0x3e,
  0x08, 0x03, 0xe5, 0x3e, 0x0d, 0x98, 0x09, 0x3e, 0x09, 0x2a, 0x0b, 0x3f,
  0x8d, 0x16, 0x52, 0x3e, 0x0d, 0x86, 0x66, 0xbe, 0xe6, 0x47, 0xe8, 0x3e,
  0xe4, 0xe9, 0xae, 0xbc, 0xb0, 0x23, 0xa4, 0xbe, 0xce, 0x88, 0x6f, 0xbe,
  0x75, 0xdf, 0xef, 0x3d, 0xb0, 0x56, 0xdd, 0x3e, 0x2b, 0x2f, 0x58, 0xbd,
  0x85, 0xa4, 0x8c, 0x3d, 0x34, 0xec, 0xc4, 0xbc, 0x30, 0x7d, 0xfc, 0xbc,
  0x23, 0x5d, 0xf1, 0xbd, 0x1a, 0xb6, 0x09, 0xbd, 0xc5, 0x12, 0x3e, 0x3d,
  0x20, 0x14, 0x89, 0xbc, 0x7a, 0x85, 0x28, 0xbe, 0x69, 0xf8, 0x4b, 0xbe,
  0x51, 0xbe, 0xc1, 0x3d, 0xf9, 0x62, 0xe3, 0x3c, 0x00, 0xea, 0xc7, 0xbd,
  0x10, 0xff, 0x99, 0xbd, 0xc3, 0x84, 0xa9, 0xbd, 0x1c, 0x99, 0x63, 0xbe,
  0x15, 0x6f, 0x0e, 0xbe, 0x57, 0x23, 0x11, 0xbe, 0xcb, 0x62, 0xa7, 0xbc,
  0x29, 0xc7, 0xa8, 0xbe, 0xff, 0x03, 0xd5, 0x3d, 0xc9, 0xbd, 0x8c, 0x3e,
  0x3d, 0x3d, 0x14, 0xbd, 0xb2, 0x25, 0x09, 0xbe, 0x81, 0x91, 0x04, 0x3e,
  0x0b, 0x7f, 0x83, 0x3e, 0x72, 0x95, 0x7d, 0x3c, 0x3b, 0x7e, 0xfd, 0x37,
  0xf2, 0x0e, 0xb1, 0xbe, 0x64, 0x32, 0xad, 0xbe, 0xbc, 0xd1, 0x98, 0x3e,
  0x8e, 0x0b, 0xa3, 0x3c, 0xfa, 0x7e, 0xad, 0xbe, 0xe2, 0xd0, 0xbf, 0x3d,
  0x1e, 0xfe, 0xff, 0xff, 0x04, 0x00, 0x00, 0x00, 0x40, 0x01, 0x00, 0x00,
  0x96, 0x8f, 0x74, 0xbe, 0xc7, 0x0c, 0x1e, 0xbf, 0x0b, 0xcb, 0xc3, 0x3d,
  0x4b, 0xa8, 0x4d, 0x3d, 0x73, 0x7c, 0xae, 0x3e, 0x21, 0x89, 0xac, 0xbe,
  0x22, 0x95, 0xef, 0x3e, 0x70, 0x61, 0x0f, 0xbf, 0xb6, 0x7f, 0x1a, 0x3f,
  0x11, 0x10, 0x08, 0x3e, 0xea, 0x65, 0xdb, 0x3e, 0xfc, 0x7f, 0x04, 0x3f,
  0x7f, 0xec, 0x8d, 0xbe, 0xce, 0x63, 0x9e, 0x3e, 0x30, 0x93, 0xac, 0xbd,
  0x31, 0xc4, 0x8a, 0xbd, 0x0e, 0x32, 0x11, 0xbf, 0xfb, 0x51, 0xf6, 0x3d,
  0x8d, 0xaf, 0xfa, 0x3e, 0x94, 0x70, 0x57, 0xbe, 0x57, 0x35, 0x51, 0xbe,
  0x65, 0xb4, 0xdc, 0xbe, 0xbb, 0x42, 0x2b, 0xbf, 0x69, 0xbb, 0x93, 0x3e,
  0xa7, 0x1a, 0x84, 0x3e, 0x7a, 0x15, 0x99, 0x3d, 0x52, 0x5d, 0x86, 0x3e,
  0xf3, 0x36, 0x8f, 0x3e, 0x86, 0x3d, 0xce, 0x3e, 0xc9, 0x4e, 0x4a, 0xbe,
  0x67, 0x9c, 0x0a, 0xbf, 0xdf, 0xdd, 0x74, 0xbc, 0xa9, 0xcb, 0x20, 0x3d,
  0xe8, 0x39, 0xd5, 0x3e, 0x11, 0xf8, 0x4d, 0x3f, 0x57, 0xad, 0x70, 0xbe,
  0x5c, 0x2c, 0x9a, 0xbe, 0x0e, 0x94, 0xc3, 0xbe, 0xa4, 0x25, 0x78, 0x3e,
  0x25, 0x81, 0x93, 0x3e, 0x0d, 0xa0, 0x28, 0xbf, 0x39, 0x2e, 0x67, 0xbd,
  0xc5, 0x86, 0x00, 0x3f, 0x6b, 0x94, 0xa3, 0xbe, 0xa6, 0x49, 0x0a, 0xbf,
  0x53, 0x0d, 0xae, 0x3e, 0x1d, 0x1b, 0xf6, 0xba, 0xaa, 0x88, 0x0f, 0xbe,
  0x4d, 0x2f, 0xd9, 0x3e, 0x0b, 0x1d, 0xea, 0xbe, 0x3f, 0xe7, 0x28, 0xbf,
  0xc6, 0x78, 0x20, 0xbf, 0x04, 0x22, 0x3a, 0xbf, 0xf4, 0x05, 0xcf, 0x3e,
  0x63, 0xa6, 0x7a, 0x3e, 0x46, 0x1a, 0xf5, 0x3e, 0xa4, 0xe1, 0xef, 0xbe,
  0x29, 0x86, 0x0e, 0xbf, 0x10, 0x86, 0x70, 0x3d, 0x63, 0xe6, 0xfc, 0x3c,
  0xdb, 0x65, 0xc6, 0x3c, 0x1c, 0x7e, 0x5d, 0xbe, 0x1b, 0x87, 0xcd, 0x3e,
  0xfa, 0xb2, 0x8f, 0xbe, 0x23, 0x6f, 0x08, 0x3f, 0xee, 0x2d, 0x32, 0xbd,
  0x02, 0x85, 0x78, 0xbe, 0x04, 0xc2, 0x06, 0xbf, 0xb9, 0x28, 0x99, 0x3d,
  0x5f, 0x41, 0x02, 0x3f, 0x4f, 0xcc, 0x11, 0x3f, 0xda, 0x5f, 0xe3, 0x3e,
  0xde, 0xfc, 0xe2, 0xbe, 0xf5, 0x72, 0x4e, 0xbf, 0x10, 0x39, 0xbe, 0xbd,
  0x0b, 0x33, 0x60, 0xbe, 0x19, 0x8d, 0xc5, 0x3e, 0xa2, 0xd5, 0xd9, 0x3e,
  0xf9, 0x4f, 0x9b, 0x3e, 0x1b, 0x6a, 0xe2, 0xbe, 0x68, 0xfa, 0xff, 0xff,
  0x6c, 0xfa, 0xff, 0xff, 0x0f, 0x00, 0x00, 0x00, 0x4d, 0x4c, 0x49, 0x52,
  0x20, 0x43, 0x6f, 0x6e, 0x76, 0x65, 0x72, 0x74, 0x65, 0x64, 0x2e, 0x00,
  0x01, 0x00, 0x00, 0x00, 0x14, 0x00, 0x00, 0x00, 0x00, 0x00, 0x0e, 0x00,
  0x18, 0x00, 0x14, 0x00, 0x10, 0x00, 0x0c, 0x00, 0x08, 0x00, 0x04, 0x00,
  0x0e, 0x00, 0x00, 0x00, 0x14, 0x00, 0x00, 0x00, 0x1c, 0x00, 0x00, 0x00,
  0x24, 0x01, 0x00, 0x00, 0x28, 0x01, 0x00, 0x00, 0x2c, 0x01, 0x00, 0x00,
  0x04, 0x00, 0x00, 0x00, 0x6d, 0x61, 0x69, 0x6e, 0x00, 0x00, 0x00, 0x00,
  0x04, 0x00, 0x00, 0x00, 0xcc, 0x00, 0x00, 0x00, 0x84, 0x00, 0x00, 0x00,
  0x50, 0x00, 0x00, 0x00, 0x14, 0x00, 0x00, 0x00, 0x00, 0x00, 0x0e, 0x00,
  0x1a, 0x00, 0x14, 0x00, 0x10, 0x00, 0x0c, 0x00, 0x0b, 0x00, 0x04, 0x00,
  0x0e, 0x00, 0x00, 0x00, 0x1c, 0x00, 0x00, 0x00, 0x00, 0x00, 0x00, 0x09,
  0x1c, 0x00, 0x00, 0x00, 0x20, 0x00, 0x00, 0x00, 0x01, 0x00, 0x00, 0x00,
  0x00, 0x00, 0x06, 0x00, 0x08, 0x00, 0x04, 0x00, 0x06, 0x00, 0x00, 0x00,
  0x00, 0x00, 0x80, 0x3f, 0x01, 0x00, 0x00, 0x00, 0x0a, 0x00, 0x00, 0x00,
  0x01, 0x00, 0x00, 0x00, 0x09, 0x00, 0x00, 0x00, 0x9a, 0xff, 0xff, 0xff,
  0x10, 0x00, 0x00, 0x00, 0x00, 0x00, 0x00, 0x08, 0x0c, 0x00, 0x00, 0x00,
  0x10, 0x00, 0x00, 0x00, 0x30, 0xfb, 0xff, 0xff, 0x01, 0x00, 0x00, 0x00,
  0x09, 0x00, 0x00, 0x00, 0x03, 0x00, 0x00, 0x00, 0x08, 0x00, 0x00, 0x00,
  0x01, 0x00, 0x00, 0x00, 0x03, 0x00, 0x00, 0x00, 0xca, 0xff, 0xff, 0xff,
  0x10, 0x00, 0x00, 0x00, 0x00, 0x00, 0x00, 0x08, 0x10, 0x00, 0x00, 0x00,
  0x14, 0x00, 0x00, 0x00, 0xba, 0xff, 0xff, 0xff, 0x00, 0x00, 0x00, 0x01,
  0x01, 0x00, 0x00, 0x00, 0x08, 0x00, 0x00, 0x00, 0x03, 0x00, 0x00, 0x00,
  0x07, 0x00, 0x00, 0x00, 0x02, 0x00, 0x00, 0x00, 0x04, 0x00, 0x00, 0x00,
  0x00, 0x00, 0x0e, 0x00, 0x16, 0x00, 0x00, 0x00, 0x10, 0x00, 0x0c, 0x00,
  0x0b, 0x00, 0x04, 0x00, 0x0e, 0x00, 0x00, 0x00, 0x18, 0x00, 0x00, 0x00,
  0x00, 0x00, 0x00, 0x08, 0x18, 0x00, 0x00, 0x00, 0x1c, 0x00, 0x00, 0x00,
  0x00, 0x00, 0x06, 0x00, 0x08, 0x00, 0x07, 0x00, 0x06, 0x00, 0x00, 0x00,
  0x00, 0x00, 0x00, 0x01, 0x01, 0x00, 0x00, 0x00, 0x07, 0x00, 0x00, 0x00,
  0x03, 0x00, 0x00, 0x00, 0x00, 0x00, 0x00, 0x00, 0x06, 0x00, 0x00, 0x00,
  0x05, 0x00, 0x00, 0x00, 0x01, 0x00, 0x00, 0x00, 0x0a, 0x00, 0x00, 0x00,
  0x01, 0x00, 0x00, 0x00, 0x00, 0x00, 0x00, 0x00, 0x0b, 0x00, 0x00, 0x00,
  0xf8, 0x03, 0x00, 0x00, 0xa0, 0x03, 0x00, 0x00, 0x48, 0x03, 0x00, 0x00,
  0x0c, 0x03, 0x00, 0x00, 0xd0, 0x02, 0x00, 0x00, 0x74, 0x02, 0x00, 0x00,
  0x20, 0x02, 0x00, 0x00, 0x80, 0x01, 0x00, 0x00, 0xe0, 0x00, 0x00, 0x00,
  0x60, 0x00, 0x00, 0x00, 0x04, 0x00, 0x00, 0x00, 0x4a, 0xfc, 0xff, 0xff,
  0x00, 0x00, 0x00, 0x01, 0x14, 0x00, 0x00, 0x00, 0x1c, 0x00, 0x00, 0x00,
  0x1c, 0x00, 0x00, 0x00, 0x0b, 0x00, 0x00, 0x00, 0x34, 0x00, 0x00, 0x00,
  0x02, 0x00, 0x00, 0x00, 0xff, 0xff, 0xff, 0xff, 0x05, 0x00, 0x00, 0x00,
  0x34, 0xfc, 0xff, 0xff, 0x1b, 0x00, 0x00, 0x00, 0x53, 0x74, 0x61, 0x74,
  0x65, 0x66, 0x75, 0x6c, 0x50, 0x61, 0x72, 0x74, 0x69, 0x74, 0x69, 0x6f,
  0x6e, 0x65, 0x64, 0x43, 0x61, 0x6c, 0x6c, 0x5f, 0x31, 0x3a, 0x30, 0x00,
  0x02, 0x00, 0x00, 0x00, 0x01, 0x00, 0x00, 0x00, 0x05, 0x00, 0x00, 0x00,
  0xa2, 0xfc, 0xff, 0xff, 0x00, 0x00, 0x00, 0x01, 0x14, 0x00, 0x00, 0x00,
  0x1c, 0x00, 0x00, 0x00, 0x1c, 0x00, 0x00, 0x00, 0x0a, 0x00, 0x00, 0x00,
  0x58, 0x00, 0x00, 0x00, 0x02, 0x00, 0x00, 0x00, 0xff, 0xff, 0xff, 0xff,
  0x05, 0x00, 0x00, 0x00, 0x8c, 0xfc, 0xff, 0xff, 0x3e, 0x00, 0x00, 0x00,
  0x73, 0x65, 0x71, 0x75, 0x65, 0x6e, 0x74, 0x69, 0x61, 0x6c, 0x5f, 0x34,
  0x5f, 0x31, 0x2f, 0x64, 0x65, 0x6e, 0x73, 0x65, 0x5f, 0x31, 0x34, 0x5f,
  0x31, 0x2f, 0x4d, 0x61, 0x74, 0x4d, 0x75, 0x6c, 0x3b, 0x73, 0x65, 0x71,
  0x75, 0x65, 0x6e, 0x74, 0x69, 0x61, 0x6c, 0x5f, 0x34, 0x5f, 0x31, 0x2f,
  0x64, 0x65, 0x6e, 0x73, 0x65, 0x5f, 0x31, 0x34, 0x5f, 0x31, 0x2f, 0x41,
  0x64, 0x64, 0x00, 0x00, 0x02, 0x00, 0x00, 0x00, 0x01, 0x00, 0x00, 0x00,
  0x05, 0x00, 0x00, 0x00, 0x1e, 0xfd, 0xff, 0xff, 0x00, 0x00, 0x00, 0x01,
  0x14, 0x00, 0x00, 0x00, 0x1c, 0x00, 0x00, 0x00, 0x1c, 0x00, 0x00, 0x00,
  0x09, 0x00, 0x00, 0x00, 0x78, 0x00, 0x00, 0x00, 0x02, 0x00, 0x00, 0x00,
  0xff, 0xff, 0xff, 0xff, 0x10, 0x00, 0x00, 0x00, 0x08, 0xfd, 0xff, 0xff,
  0x5d, 0x00, 0x00, 0x00, 0x73, 0x65, 0x71, 0x75, 0x65, 0x6e, 0x74, 0x69,
  0x61, 0x6c, 0x5f, 0x34, 0x5f, 0x31, 0x2f, 0x64, 0x65, 0x6e, 0x73, 0x65,
  0x5f, 0x31, 0x33, 0x5f, 0x31, 0x2f, 0x4d, 0x61, 0x74, 0x4d, 0x75, 0x6c,
  0x3b, 0x73, 0x65, 0x71, 0x75, 0x65, 0x6e, 0x74, 0x69, 0x61, 0x6c, 0x5f,
  0x34, 0x5f, 0x31, 0x2f, 0x64, 0x65, 0x6e, 0x73, 0x65, 0x5f, 0x31, 0x33,
  0x5f, 0x31, 0x2f, 0x52, 0x65, 0x6c, 0x75, 0x3b, 0x73, 0x65, 0x71, 0x75,
  0x65, 0x6e, 0x74, 0x69, 0x61, 0x6c, 0x5f, 0x34, 0x5f, 0x31, 0x2f, 0x64,
  0x65, 0x6e, 0x73, 0x65, 0x5f, 0x31, 0x33, 0x5f, 0x31, 0x2f, 0x41, 0x64,
  0x64, 0x00, 0x00, 0x00, 0x02, 0x00, 0x00, 0x00, 0x01, 0x00, 0x00, 0x00,
  0x10, 0x00, 0x00, 0x00, 0xba, 0xfd, 0xff, 0xff, 0x00, 0x00, 0x00, 0x01,
  0x14, 0x00, 0x00, 0x00, 0x1c, 0x00, 0x00, 0x00, 0x1c, 0x00, 0x00, 0x00,
  0x08, 0x00, 0x00, 0x00, 0x78, 0x00, 0x00, 0x00, 0x02, 0x00, 0x00, 0x00,
  0xff, 0xff, 0xff, 0xff, 0x20, 0x00, 0x00, 0x00, 0xa4, 0xfd, 0xff, 0xff,
  0x5d, 0x00, 0x00, 0x00, 0x73, 0x65, 0x71, 0x75, 0x65, 0x6e, 0x74, 0x69,
  0x61, 0x6c, 0x5f, 0x34, 0x5f, 0x31, 0x2f, 0x64, 0x65, 0x6e, 0x73, 0x65,
  0x5f, 0x31, 0x32, 0x5f, 0x31, 0x2f, 0x4d, 0x61, 0x74, 0x4d, 0x75, 0x6c,
  0x3b, 0x73, 0x65, 0x71, 0x75, 0x65, 0x6e, 0x74, 0x69, 0x61, 0x6c, 0x5f,
  0x34, 0x5f, 0x31, 0x2f, 0x64, 0x65, 0x6e, 0x73, 0x65, 0x5f, 0x31, 0x32,
  0x5f, 0x31, 0x2f, 0x52, 0x65, 0x6c, 0x75, 0x3b, 0x73, 0x65, 0x71, 0x75,
  0x65, 0x6e, 0x74, 0x69, 0x61, 0x6c, 0x5f, 0x34, 0x5f, 0x31, 0x2f, 0x64,
  0x65, 0x6e, 0x73, 0x65, 0x5f, 0x31, 0x32, 0x5f, 0x31, 0x2f, 0x41, 0x64,
  0x64, 0x00, 0x00, 0x00, 0x02, 0x00, 0x00, 0x00, 0x01, 0x00, 0x00, 0x00,
  0x20, 0x00, 0x00, 0x00, 0xaa, 0xfe, 0xff, 0xff, 0x00, 0x00, 0x00, 0x01,
  0x10, 0x00, 0x00, 0x00, 0x10, 0x00, 0x00, 0x00, 0x07, 0x00, 0x00, 0x00,
  0x30, 0x00, 0x00, 0x00, 0x30, 0xfe, 0xff, 0xff, 0x20, 0x00, 0x00, 0x00,
  0x73, 0x65, 0x71, 0x75, 0x65, 0x6e, 0x74, 0x69, 0x61, 0x6c, 0x5f, 0x34,
  0x5f, 0x31, 0x2f, 0x64, 0x65, 0x6e, 0x73, 0x65, 0x5f, 0x31, 0x32, 0x5f,
  0x31, 0x2f, 0x4d, 0x61, 0x74, 0x4d, 0x75, 0x6c, 0x00, 0x00, 0x00, 0x00,
  0x02, 0x00, 0x00, 0x00, 0x20, 0x00, 0x00, 0x00, 0x04, 0x00, 0x00, 0x00,
  0xfa, 0xfe, 0xff, 0xff, 0x00, 0x00, 0x00, 0x01, 0x10, 0x00, 0x00, 0x00,
  0x10, 0x00, 0x00, 0x00, 0x06, 0x00, 0x00, 0x00, 0x3c, 0x00, 0x00, 0x00,
  0x80, 0xfe, 0xff, 0xff, 0x2c, 0x00, 0x00, 0x00, 0x73, 0x65, 0x71, 0x75,
  0x65, 0x6e, 0x74, 0x69, 0x61, 0x6c, 0x5f, 0x34, 0x5f, 0x31, 0x2f, 0x64,
  0x65, 0x6e, 0x73, 0x65, 0x5f, 0x31, 0x32, 0x5f, 0x31, 0x2f, 0x41, 0x64,
  0x64, 0x2f, 0x52, 0x65, 0x61, 0x64, 0x56, 0x61, 0x72, 0x69, 0x61, 0x62,
  0x6c, 0x65, 0x4f, 0x70, 0x00, 0x00, 0x00, 0x00, 0x01, 0x00, 0x00, 0x00,
  0x20, 0x00, 0x00, 0x00, 0x52, 0xff, 0xff, 0xff, 0x00, 0x00, 0x00, 0x01,
  0x10, 0x00, 0x00, 0x00, 0x10, 0x00, 0x00, 0x00, 0x05, 0x00, 0x00, 0x00,
  0x1c, 0x00, 0x00, 0x00, 0xd8, 0xfe, 0xff, 0xff, 0x0f, 0x00, 0x00, 0x00,
  0x61, 0x72, 0x69, 0x74, 0x68, 0x2e, 0x63, 0x6f, 0x6e, 0x73, 0x74, 0x61,
  0x6e, 0x74, 0x33, 0x00, 0x01, 0x00, 0x00, 0x00, 0x10, 0x00, 0x00, 0x00,
  0x8a, 0xff, 0xff, 0xff, 0x00, 0x00, 0x00, 0x01, 0x10, 0x00, 0x00, 0x00,
  0x10, 0x00, 0x00, 0x00, 0x04, 0x00, 0x00, 0x00, 0x1c, 0x00, 0x00, 0x00,
  0x10, 0xff, 0xff, 0xff, 0x0f, 0x00, 0x00, 0x00, 0x61, 0x72, 0x69, 0x74,
  0x68, 0x2e, 0x63, 0x6f, 0x6e, 0x73, 0x74, 0x61, 0x6e, 0x74, 0x32, 0x00,
  0x01, 0x00, 0x00, 0x00, 0x05, 0x00, 0x00, 0x00, 0xc2, 0xff, 0xff, 0xff,
  0x00, 0x00, 0x00, 0x01, 0x10, 0x00, 0x00, 0x00, 0x10, 0x00, 0x00, 0x00,
  0x03, 0x00, 0x00, 0x00, 0x1c, 0x00, 0x00, 0x00, 0x48, 0xff, 0xff, 0xff,
  0x0f, 0x00, 0x00, 0x00, 0x61, 0x72, 0x69, 0x74, 0x68, 0x2e, 0x63, 0x6f,
  0x6e, 0x73, 0x74, 0x61, 0x6e, 0x74, 0x31, 0x00, 0x02, 0x00, 0x00, 0x00,
  0x10, 0x00, 0x00, 0x00, 0x20, 0x00, 0x00, 0x00, 0x00, 0x00, 0x16, 0x00,
  0x18, 0x00, 0x14, 0x00, 0x00, 0x00, 0x10, 0x00, 0x0c, 0x00, 0x08, 0x00,
  0x00, 0x00, 0x00, 0x00, 0x00, 0x00, 0x07, 0x00, 0x16, 0x00, 0x00, 0x00,
  0x00, 0x00, 0x00, 0x01, 0x10, 0x00, 0x00, 0x00, 0x10, 0x00, 0x00, 0x00,
  0x02, 0x00, 0x00, 0x00, 0x1c, 0x00, 0x00, 0x00, 0x9c, 0xff, 0xff, 0xff,
  0x0e, 0x00, 0x00, 0x00, 0x61, 0x72, 0x69, 0x74, 0x68, 0x2e, 0x63, 0x6f,
  0x6e, 0x73, 0x74, 0x61, 0x6e, 0x74, 0x00, 0x00, 0x02, 0x00, 0x00, 0x00,
  0x05, 0x00, 0x00, 0x00, 0x10, 0x00, 0x00, 0x00, 0x00, 0x00, 0x16, 0x00,
  0x1c, 0x00, 0x18, 0x00, 0x00, 0x00, 0x14, 0x00, 0x10, 0x00, 0x0c, 0x00,
  0x00, 0x00, 0x00, 0x00, 0x08, 0x00, 0x07, 0x00, 0x16, 0x00, 0x00, 0x00,
  0x00, 0x00, 0x00, 0x01, 0x14, 0x00, 0x00, 0x00, 0x20, 0x00, 0x00, 0x00,
  0x20, 0x00, 0x00, 0x00, 0x01, 0x00, 0x00, 0x00, 0x40, 0x00, 0x00, 0x00,
  0x02, 0x00, 0x00, 0x00, 0xff, 0xff, 0xff, 0xff, 0x04, 0x00, 0x00, 0x00,
  0x04, 0x00, 0x04, 0x00, 0x04, 0x00, 0x00, 0x00, 0x21, 0x00, 0x00, 0x00,
  0x73, 0x65, 0x72, 0x76, 0x69, 0x6e, 0x67, 0x5f, 0x64, 0x65, 0x66, 0x61,
  0x75, 0x6c, 0x74, 0x5f, 0x6b, 0x65, 0x72, 0x61, 0x73, 0x5f, 0x74, 0x65,
  0x6e, 0x73, 0x6f, 0x72, 0x5f, 0x31, 0x36, 0x3a, 0x30, 0x00, 0x00, 0x00,
  0x02, 0x00, 0x00, 0x00, 0x01, 0x00, 0x00, 0x00, 0x04, 0x00, 0x00, 0x00,
  0x02, 0x00, 0x00, 0x00, 0x20, 0x00, 0x00, 0x00, 0x04, 0x00, 0x00, 0x00,
  0xf4, 0xff, 0xff, 0xff, 0x19, 0x00, 0x00, 0x00, 0x00, 0x00, 0x00, 0x19,
  0x0c, 0x00, 0x0c, 0x00, 0x0b, 0x00, 0x00, 0x00, 0x00, 0x00, 0x04, 0x00,
  0x0c, 0x00, 0x00, 0x00, 0x09, 0x00, 0x00, 0x00, 0x00, 0x00, 0x00, 0x09
};
unsigned int stress_model_tflite_len = 5196;
